<?xml version="1.0"?>
<opencv_storage>
<stage4>
  <maxWeakCount>7</maxWeakCount>
  <stageThreshold>-9.3966346979141235e-01</stageThreshold>
  <weakClassifiers>
    <_>
      <internalNodes>
        0 -1 8269 1.4604343101382256e-02</internalNodes>
      <leafValues>
        -5.0231480598449707e-01 7.2657954692840576e-01</leafValues></_>
    <_>
      <internalNodes>
        0 -1 69668 3.5791583359241486e-02</internalNodes>
      <leafValues>
        -3.3676725625991821e-01 8.9604932069778442e-01</leafValues></_>
    <_>
      <internalNodes>
        0 -1 75853 2.6907590217888355e-03</internalNodes>
      <leafValues>
        -4.7106057405471802e-01 6.6407853364944458e-01</leafValues></_>
    <_>
      <internalNodes>
        0 -1 11263 -2.1339240483939648e-03</internalNodes>
      <leafValues>
        6.3401025533676147e-01 -4.3263265490531921e-01</leafValues></_>
    <_>
      <internalNodes>
        0 -1 49954 -4.7452300786972046e-03</internalNodes>
      <leafValues>
        4.7628191113471985e-01 -6.0342091321945190e-01</leafValues></_>
    <_>
      <internalNodes>
        0 -1 57597 4.8089278861880302e-03</internalNodes>
      <leafValues>
        -3.2830426096916199e-01 8.4106290340423584e-01</leafValues></_>
    <_>
      <internalNodes>
        0 -1 33958 -1.1105474550276995e-03</internalNodes>
      <leafValues>
        6.2868314981460571e-01 -4.6694502234458923e-01</leafValues></_></weakClassifiers></stage4>
</opencv_storage>
